111110001
111110000
111111111
111110000
000000010
111110011
111111100
111110000
111110001
111110000
000001101
000010000
111111100
000001111
111111110
000010000
000001000
000010000
000001111
000010000
000000001
111110001
111110000
000000110
111110000
111110000
000001000
000010000
000001111
000010000
111110110
000000000
000010000
000000100
000001101
000001100
000001111
111110000
111110000
111111110
000000001
000001110
111110110
000001100
000001111
111110011
111110000
000001111
111110110
111110001
111111010
111110000
111111101
111110000
111110000
111111100
111110000
000001111
000010000
000001111
000000110
111111101
111110101
111110001
000001011
111110000
111110000
000010000
000001100
000001111
000010000
000000110
000000000
111111101
000000100
000001010
000001110
111111000
000001111
111110111
111110111
111110001
111110000
000001110
000000001
111111111
000001111
111110111
111110000
000001111
111110010
000000000
111110000
000001111
111110011
000010000
111111010
111111001
111110000
111110011
111110000
111110000
111110000
111111111
111110000
000010000
111110100
111111101
111110100
000001000
000001001
111110110
000001011
111111111
111111000
000001111
111111101
000000011
000001100
111110001
000001101
111110000
000010000
000001111
111110000
000000001
111111000
111110000
000010000
000001011
111110111
111110100
111110000
111110111
111110000
000010000
111110000
000001001
111110010
111110001
000001001
000010000
000001110
000001111
000010000
111110000
111110110
000001111
000001010
111110001
000000101
111111010
111110000
000001111
000001100
111110000
000000000
000001001
111110000
000000100
000001111
000000100
000010000
111110000
000000110
000000010
111110000
000000111
000010000
111110000
000000011
000001011
000000110
000001111
111110000
111110000
000001100
111110011
111110000
000001111
111110011
111110001
000000110
000001111
111110101
000010000
111111000
111110101
111110000
111111001
000000010
111111000
000000010
000000110
000001101
111110001
111111101
111110110
000000101
111110111
